{
  "version": "1.0",
  "truncation": null,
  "padding": null,
  "added_tokens": [
    {
      "id": 0,
      "content": "[PAD]",
      "single_word": false,
      "lstrip": false,
      "rstrip": false,
      "normalized": false,
      "special": true
    },
    {
      "id": 1,
      "content": "[BOS]",
      "single_word": false,
      "lstrip": false,
      "rstrip": false,
      "normalized": false,
      "special": true
    },
    {
      "id": 2,
      "content": "[EOS]",
      "single_word": false,
      "lstrip": false,
      "rstrip": false,
      "normalized": false,
      "special": true
    },
    {
      "id": 3,
      "content": "[UNK]",
      "single_word": false,
      "lstrip": false,
      "rstrip": false,
      "normalized": false,
      "special": true
    }
  ],
  "normalizer": null,
  "pre_tokenizer": {
    "type": "Whitespace"
  },
  "post_processor": null,
  "decoder": null,
  "model": {
    "type": "BPE",
    "dropout": null,
    "unk_token": "[UNK]",
    "continuing_subword_prefix": null,
    "end_of_word_suffix": null,
    "fuse_unk": false,
    "byte_fallback": false,
    "ignore_merges": false,
    "vocab": {
      "[PAD]": 0,
      "[BOS]": 1,
      "[EOS]": 2,
      "[UNK]": 3,
      "!": 4,
      "\"": 5,
      "#": 6,
      "$": 7,
      "%": 8,
      "&": 9,
      "'": 10,
      "(": 11,
      ")": 12,
      "*": 13,
      "+": 14,
      ",": 15,
      "-": 16,
      ".": 17,
      "/": 18,
      "0": 19,
      "1": 20,
      "2": 21,
      "3": 22,
      "4": 23,
      "5": 24,
      "6": 25,
      "7": 26,
      "8": 27,
      "9": 28,
      ":": 29,
      ";": 30,
      "<": 31,
      "=": 32,
      ">": 33,
      "?": 34,
      "@": 35,
      "A": 36,
      "B": 37,
      "C": 38,
      "D": 39,
      "E": 40,
      "F": 41,
      "G": 42,
      "H": 43,
      "I": 44,
      "J": 45,
      "K": 46,
      "L": 47,
      "M": 48,
      "N": 49,
      "O": 50,
      "P": 51,
      "Q": 52,
      "R": 53,
      "S": 54,
      "T": 55,
      "U": 56,
      "V": 57,
      "W": 58,
      "X": 59,
      "Y": 60,
      "Z": 61,
      "[": 62,
      "\\": 63,
      "]": 64,
      "^": 65,
      "_": 66,
      "`": 67,
      "a": 68,
      "b": 69,
      "c": 70,
      "d": 71,
      "e": 72,
      "f": 73,
      "g": 74,
      "h": 75,
      "i": 76,
      "j": 77,
      "k": 78,
      "l": 79,
      "m": 80,
      "n": 81,
      "o": 82,
      "p": 83,
      "q": 84,
      "r": 85,
      "s": 86,
      "t": 87,
      "u": 88,
      "v": 89,
      "w": 90,
      "x": 91,
      "y": 92,
      "z": 93,
      "{": 94,
      "}": 95,
      "~": 96,
      "¡": 97,
      "£": 98,
      "§": 99,
      "ª": 100,
      "«": 101,
      "­": 102,
      "°": 103,
      "±": 104,
      "²": 105,
      "´": 106,
      "¶": 107,
      "·": 108,
      "º": 109,
      "»": 110,
      "À": 111,
      "Á": 112,
      "Â": 113,
      "Ã": 114,
      "Å": 115,
      "Ç": 116,
      "È": 117,
      "É": 118,
      "Ê": 119,
      "Ì": 120,
      "Í": 121,
      "Ð": 122,
      "Ó": 123,
      "Õ": 124,
      "Ú": 125,
      "à": 126,
      "á": 127,
      "â": 128,
      "ã": 129,
      "ä": 130,
      "å": 131,
      "ç": 132,
      "è": 133,
      "é": 134,
      "ê": 135,
      "ë": 136,
      "ì": 137,
      "í": 138,
      "ñ": 139,
      "ò": 140,
      "ó": 141,
      "ô": 142,
      "õ": 143,
      "ö": 144,
      "ú": 145,
      "ü": 146,
      "ć": 147,
      "č": 148,
      "ě": 149,
      "ı": 150,
      "Œ": 151,
      "ř": 152,
      "Š": 153,
      "š": 154,
      "ū": 155,
      "ż": 156,
      "˜": 157,
      "Ό": 158,
      "Ε": 159,
      "Ν": 160,
      "Φ": 161,
      "ά": 162,
      "α": 163,
      "δ": 164,
      "λ": 165,
      "μ": 166,
      "ν": 167,
      "П": 168,
      "С": 169,
      "в": 170,
      "д": 171,
      "е": 172,
      "и": 173,
      "л": 174,
      "р": 175,
      "т": 176,
      "ё": 177,
      "‐": 178,
      "–": 179,
      "—": 180,
      "‘": 181,
      "’": 182,
      "“": 183,
      "”": 184,
      "•": 185,
      "…": 186,
      "€": 187,
      "≤": 188,
      "≥": 189,
      "□": 190,
      "♪": 191,
      "。": 192,
      "一": 193,
      "下": 194,
      "不": 195,
      "以": 196,
      "做": 197,
      "去": 198,
      "可": 199,
      "如": 200,
      "对": 201,
      "尝": 202,
      "所": 203,
      "果": 204,
      "要": 205,
      "试": 206,
      "针": 207,
      "高": 208,
      "녀": 209,
      "대": 210,
      "소": 211,
      "시": 212,
      "": 213,
      "er": 214,
      "es": 215,
      "in": 216,
      "th": 217,
      "en": 218,
      "on": 219,
      "an": 220,
      "ar": 221,
      "or": 222,
      "as": 223,
      "de": 224,
      "is": 225,
      "os": 226,
      "ou": 227,
      "at": 228,
      "re": 229,
      "to": 230,
      "al": 231,
      "the": 232,
      "qu": 233,
      "te": 234,
      "om": 235,
      "do": 236,
      "ão": 237,
      "ti": 238,
      "em": 239,
      "da": 240,
      "se": 241,
      "am": 242,
      "ro": 243,
      "it": 244,
      "ing": 245,
      "ic": 246,
      "que": 247,
      "le": 248,
      "of": 249,
      "um": 250,
      "ve": 251,
      "ta": 252,
      "ac": 253,
      "ri": 254,
      "and": 255,
      "ent": 256,
      "no": 257,
      "me": 258,
      "com": 259,
      "he": 260,
      "..": 261,
      "you": 262,
      "con": 263,
      "ra": 264,
      "di": 265,
      "ci": 266,
      "be": 267,
      "par": 268,
      "st": 269,
      "ion": 270,
      "pe": 271,
      "for": 272,
      "un": 273,
      "so": 274,
      "li": 275,
      "ha": 276,
      "ll": 277,
      "ed": 278,
      "ma": 279,
      "ter": 280,
      "est": 281,
      "go": 282,
      "im": 283,
      "ver": 284,
      "pro": 285,
      "ul": 286,
      "ção": 287,
      "res": 288,
      "ho": 289,
      "lo": 290,
      "ad": 291,
      "po": 292,
      "ir": 293,
      "us": 294,
      "ce": 295,
      "por": 296,
      "ab": 297,
      "ente": 298,
      "ur": 299,
      "...": 300,
      "that": 301,
      "para": 302,
      "id": 303,
      "não": 304,
      "ia": 305,
      "ere": 306,
      "ca": 307,
      "ly": 308,
      "per": 309,
      "co": 310,
      "wi": 311,
      "ation": 312,
      "tr": 313,
      "la": 314,
      "uma": 315,
      "su": 316,
      "dos": 317,
      "ut": 318,
      "ch": 319,
      "ex": 320,
      "gh": 321,
      "wh": 322,
      "ke": 323,
      "ld": 324,
      "sa": 325,
      "ne": 326,
      "vi": 327,
      "des": 328,
      "we": 329,
      "ge": 330,
      "Com": 331,
      "na": 332,
      "va": 333,
      "vo": 334,
      "out": 335,
      "tu": 336,
      "gu": 337,
      "are": 338,
      "pa": 339,
      "fe": 340,
      "00": 341,
      "all": 342,
      "il": 343,
      "mo": 344,
      "ant": 345,
      "with": 346,
      "ser": 347,
      "ões": 348,
      "tion": 349,
      "pos": 350,
      "ess": 351,
      "The": 352,
      "Th": 353,
      "pre": 354,
      "ght": 355,
      "Não": 356,
      "You": 357,
      "fic": 358,
      "one": 359,
      "fa": 360,
      "this": 361,
      "ento": 362,
      "Eu": 363,
      "ap": 364,
      "ust": 365,
      "not": 366,
      "das": 367,
      "No": 368,
      "si": 369,
      "pr": 370,
      "der": 371,
      "ga": 372,
      "now": 373,
      "dade": 374,
      "dis": 375,
      "Wh": 376,
      "was": 377,
      "have": 378,
      "ate": 379,
      "fr": 380,
      "od": 381,
      "pl": 382,
      "iss": 383,
      "ay": 384,
      "tem": 385,
      "ther": 386,
      "min": 387,
      "ould": 388,
      "gr": 389,
      "cer": 390,
      "ome": 391,
      "ct": 392,
      "ten": 393,
      "sh": 394,
      "emb": 395,
      "ação": 396,
      "nd": 397,
      "fo": 398,
      "el": 399,
      "ções": 400,
      "ito": 401,
      "tic": 402,
      "nos": 403,
      "fer": 404,
      "man": 405,
      "can": 406,
      "qui": 407,
      "ass": 408,
      "lu": 409,
      "du": 410,
      "Qu": 411,
      "tra": 412,
      "We": 413,
      "my": 414,
      "our": 415,
      "eu": 416,
      "amos": 417,
      "Es": 418,
      "It": 419,
      "nci": 420,
      "zer": 421,
      "ati": 422,
      "De": 423,
      "ment": 424,
      "pres": 425,
      "ag": 426,
      "up": 427,
      "bl": 428,
      "hor": 429,
      "esta": 430,
      "your": 431,
      "ado": 432,
      "pen": 433,
      "know": 434,
      "mais": 435,
      "está": 436,
      "by": 437,
      "cas": 438,
      "Re": 439,
      "port": 440,
      "cor": 441,
      "ol": 442,
      "fi": 443,
      "mu": 444,
      "ity": 445,
      "He": 446,
      "ted": 447,
      "et": 448,
      "200": 449,
      "ni": 450,
      "como": 451,
      "19": 452,
      "mor": 453,
      "ist": 454,
      "Euro": 455,
      "bo": 456,
      "mos": 457,
      "thing": 458,
      "ok": 459,
      "Est": 460,
      "has": 461,
      "car": 462,
      "gar": 463,
      "ven": 464,
      "amento": 465,
      "ári": 466,
      "quer": 467,
      "pri": 468,
      "In": 469,
      "ob": 470,
      "ao": 471,
      "inter": 472,
      "What": 473,
      "mas": 474,
      "fin": 475,
      "vel": 476,
      "bi": 477,
      "rec": 478,
      "ém": 479,
      "her": 480,
      "bre": 481,
      "ple": 482,
      "gi": 483,
      "Con": 484,
      "ck": 485,
      "ça": 486,
      "use": 487,
      "mi": 488,
      "wor": 489,
      "from": 490,
      "mar": 491,
      "ali": 492,
      "Europe": 493,
      "just": 494,
      "ando": 495,
      "get": 496,
      "cont": 497,
      "mente": 498,
      "ans": 499,
      "bem": 500,
      "gul": 501,
      "ru": 502,
      "ada": 503,
      "mes": 504,
      "vis": 505,
      "what": 506,
      "tal": 507,
      "about": 508,
      "don": 509,
      "ele": 510,
      "ich": 511,
      "cons": 512,
      "ack": 513,
      "Se": 514,
      "like": 515,
      "cl": 516,
      "wn": 517,
      "men": 518,
      "will": 519,
      "And": 520,
      "je": 521,
      "but": 522,
      "ais": 523,
      "este": 524,
      "nt": 525,
      "Comm": 526,
      "some": 527,
      "sen": 528,
      "Ar": 529,
      "mer": 530,
      "isso": 531,
      "there": 532,
      "ncia": 533,
      "são": 534,
      "rel": 535,
      "very": 536,
      "Par": 537,
      "amente": 538,
      "right": 539,
      "vol": 540,
      "ber": 541,
      "ves": 542,
      "ica": 543,
      "vez": 544,
      "ados": 545,
      "foi": 546,
      "Por": 547,
      "ink": 548,
      "sel": 549,
      "here": 550,
      "ix": 551,
      "ance": 552,
      "AR": 553,
      "ig": 554,
      "pu": 555,
      "tar": 556,
      "ora": 557,
      "cis": 558,
      "dic": 559,
      "ally": 560,
      "ase": 561,
      "which": 562,
      "pon": 563,
      "ante": 564,
      "sobre": 565,
      "che": 566,
      "way": 567,
      "if": 568,
      "ame": 569,
      "cess": 570,
      "cr": 571,
      "fac": 572,
      "gra": 573,
      "io": 574,
      "mon": 575,
      "ts": 576,
      "fazer": 577,
      "ys": 578,
      "any": 579,
      "ast": 580,
      "they": 581,
      "pode": 582,
      "aqui": 583,
      "got": 584,
      "cial": 585,
      "segu": 586,
      "ission": 587,
      "cou": 588,
      "lic": 589,
      "ine": 590,
      "cu": 591,
      "pes": 592,
      "iro": 593,
      "ran": 594,
      "ência": 595,
      "Esta": 596,
      "Is": 597,
      "cre": 598,
      "cul": 599,
      "ens": 600,
      "ear": 601,
      "gun": 602,
      "other": 603,
      "end": 604,
      "did": 605,
      "sem": 606,
      "ember": 607,
      "cê": 608,
      "ea": 609,
      "sti": 610,
      "--": 611,
      "har": 612,
      "his": 613,
      "him": 614,
      "ow": 615,
      "hi": 616,
      "king": 617,
      "ong": 618,
      "ous": 619,
      "entes": 620,
      "ded": 621,
      "fun": 622,
      "muito": 623,
      "mat": 624,
      "ores": 625,
      "ry": 626,
      "would": 627,
      "tive": 628,
      "199": 629,
      "think": 630,
      "BAR": 631,
      "come": 632,
      "been": 633,
      "As": 634,
      "sua": 635,
      "_BAR": 636,
      "ill": 637,
      "ju": 638,
      "ement": 639,
      "_BAR_": 640,
      "Mas": 641,
      "adas": 642,
      "This": 643,
      "ida": 644,
      "want": 645,
      "bal": 646,
      "20": 647,
      "Di": 648,
      "ated": 649,
      "sub": 650,
      "au": 651,
      "ira": 652,
      "les": 653,
      "meu": 654,
      "form": 655,
      "Oh": 656,
      "St": 657,
      "op": 658,
      "son": 659,
      "tigo": 660,
      "amb": 661,
      "produ": 662,
      "time": 663,
      "issão": 664,
      "fal": 665,
      "lá": 666,
      "Está": 667,
      "EC": 668,
      "tir": 669,
      "trans": 670,
      "Regul": 671,
      "ard": 672,
      "ose": 673,
      "ces": 674,
      "),": 675,
      "fu": 676,
      "red": 677,
      "ren": 678,
      "who": 679,
      "ós": 680,
      "rou": 681,
      "more": 682,
      "So": 683,
      "cri": 684,
      "were": 685,
      "isto": 686,
      "need": 687,
      "ina": 688,
      "anto": 689,
      "ço": 690,
      "ations": 691,
      "antes": 692,
      "ble": 693,
      "over": 694,
      "Mar": 695,
      "tos": 696,
      "val": 697,
      "ese": 698,
      "seu": 699,
      "ros": 700,
      "anos": 701,
      "ace": 702,
      "ers": 703,
      "itos": 704,
      "rio": 705,
      "CE": 706,
      "ach": 707,
      "entre": 708,
      "had": 709,
      "how": 710,
      "eah": 711,
      "Al": 712,
      "emos": 713,
      "forma": 714,
      "That": 715,
      "Ele": 716,
      "cal": 717,
      "ind": 718,
      "int": 719,
      "jo": 720,
      "An": 721,
      "ction": 722,
      "ound": 723,
      "them": 724,
      "see": 725,
      "But": 726,
      "idade": 727,
      "lhe": 728,
      "gos": 729,
      "ico": 730,
      "estão": 731,
      "cois": 732,
      "af": 733,
      "era": 734,
      "its": 735,
      "good": 736,
      "should": 737,
      "Artic": 738,
      "back": 739,
      "ite": 740,
      "Commission": 741,
      "dar": 742,
      "sim": 743,
      "sab": 744,
      "enta": 745,
      "ank": 746,
      "pelo": 747,
      "ja": 748,
      "ice": 749,
      "ament": 750,
      "under": 751,
      "cause": 752,
      "European": 753,
      "gon": 754,
      "só": 755,
      "into": 756,
      "Comissão": 757,
      "br": 758,
      "gan": 759,
      "ty": 760,
      "down": 761,
      "Mr": 762,
      "bu": 763,
      "spe": 764,
      "refer": 765,
      "12": 766,
      "she": 767,
      "Sim": 768,
      "hum": 769,
      "tor": 770,
      "shall": 771,
      "clu": 772,
      "ates": 773,
      "take": 774,
      "mel": 775,
      "contr": 776,
      "dire": 777,
      "tudo": 778,
      "minha": 779,
      "Well": 780,
      "==": 781,
      "cur": 782,
      "ding": 783,
      "gen": 784,
      "pare": 785,
      "import": 786,
      "ambém": 787,
      "ting": 788,
      "ning": 789,
      "resid": 790,
      "ário": 791,
      "ure": 792,
      "vid": 793,
      "deve": 794,
      "reat": 795,
      "Yeah": 796,
      "ish": 797,
      "able": 798,
      "work": 799,
      "vos": 800,
      "dia": 801,
      "Article": 802,
      "lar": 803,
      "ary": 804,
      "ria": 805,
      "10": 806,
      "ving": 807,
      "could": 808,
      "oper": 809,
      "ties": 810,
      "acion": 811,
      "To": 812,
      "bri": 813,
      "cent": 814,
      "ís": 815,
      "iz": 816,
      "bet": 817,
      "fore": 818,
      "vida": 819,
      "pesso": 820,
      "Pro": 821,
      "ela": 822,
      "já": 823,
      "var": 824,
      "ano": 825,
      "dizer": 826,
      "part": 827,
      "look": 828,
      "pois": 829,
      "blem": 830,
      "gonna": 831,
      "She": 832,
      "também": 833,
      "ick": 834,
      "leg": 835,
      "vai": 836,
      "posi": 837,
      "tle": 838,
      "year": 839,
      "sei": 840,
      "problem": 841,
      "Que": 842,
      "Em": 843,
      "ins": 844,
      "ence": 845,
      "ree": 846,
      "day": 847,
      "Do": 848,
      "cho": 849,
      "let": 850,
      "lie": 851,
      "going": 852,
      "melhor": 853,
      "Un": 854,
      "pas": 855,
      "ami": 856,
      "Uni": 857,
      "vas": 858,
      "íci": 859,
      "itu": 860,
      "new": 861,
      "ep": 862,
      "tas": 863,
      "inha": 864,
      "their": 865,
      "make": 866,
      "say": 867,
      "They": 868,
      "trabal": 869,
      "qual": 870,
      "você": 871,
      "mesmo": 872,
      "11": 873,
      "ph": 874,
      "aliz": 875,
      "ger": 876,
      "ide": 877,
      "vir": 878,
      "liz": 879,
      "respe": 880,
      "ctor": 881,
      "Ch": 882,
      "Presid": 883,
      "mento": 884,
      "only": 885,
      "entar": 886,
      "ef": 887,
      "ior": 888,
      "must": 889,
      "ople": 890,
      "tur": 891,
      "vor": 892,
      "conta": 893,
      "Os": 894,
      "fil": 895,
      "los": 896,
      "ível": 897,
      "inda": 898,
      "todos": 899,
      "itar": 900,
      "led": 901,
      "cap": 902,
      "Member": 903,
      "num": 904,
      "inst": 905,
      "ita": 906,
      "where": 907,
      "tions": 908,
      "13": 909,
      "Be": 910,
      "ai": 911,
      "ew": 912,
      "ise": 913,
      "ating": 914,
      "Go": 915,
      "ced": 916,
      "ido": 917,
      "nor": 918,
      "quando": 919,
      "ational": 920,
      "econ": 921,
      "nas": 922,
      "pan": 923,
      "reg": 924,
      "conhe": 925,
      "dif": 926,
      "All": 927,
      "fir": 928,
      "ial": 929,
      "may": 930,
      "col": 931,
      "when": 932,
      "necess": 933,
      "gram": 934,
      "Ok": 935,
      "Tu": 936,
      "ações": 937,
      "ds": 938,
      "ight": 939,
      "inte": 940,
      "than": 941,
      "medi": 942,
      "estar": 943,
      "esse": 944,
      "espe": 945,
      "onte": 946,
      "até": 947,
      "ved": 948,
      "pela": 949,
      "Como": 950,
      "fec": 951,
      "há": 952,
      "wo": 953,
      "ater": 954,
      "Ent": 955,
      "If": 956,
      "aos": 957,
      "mil": 958,
      "enti": 959,
      "alg": 960,
      "hap": 961,
      "ider": 962,
      "said": 963,
      "II": 964,
      "lí": 965,
      "ner": 966,
      "artigo": 967,
      "people": 968,
      "try": 969,
      "count": 970,
      "Vamos": 971,
      "aga": 972,
      "off": 973,
      "comun": 974,
      "every": 975,
      "sor": 976,
      "vou": 977,
      "tell": 978,
      "ents": 979,
      "stand": 980,
      "disse": 981,
      "15": 982,
      "mun": 983,
      "regul": 984,
      "act": 985,
      "respon": 986,
      "Sen": 987,
      "ório": 988,
      "almente": 989,
      "veis": 990,
      "favor": 991,
      "gado": 992,
      "self": 993,
      "coisa": 994,
      ").": 995,
      "Lo": 996,
      "vem": 997,
      "ás": 998,
      "also": 999,
      "cion": 1000,
      "low": 1001,
      "sure": 1002,
      "precis": 1003,
      "lit": 1004,
      "ino": 1005,
      "these": 1006,
      "enas": 1007,
      "ane": 1008,
      "ang": 1009,
      "raz": 1010,
      "ult": 1011,
      "There": 1012,
      "selho": 1013,
      "Regulation": 1014,
      ".\"": 1015,
      "ak": 1016,
      "mã": 1017,
      "sta": 1018,
      "then": 1019,
      "tica": 1020,
      "tiva": 1021,
      "emp": 1022,
      "hel": 1023,
      "blic": 1024,
      "Hey": 1025,
      "Cou": 1026,
      "How": 1027,
      "via": 1028,
      "ças": 1029,
      "agora": 1030,
      "jec": 1031,
      "Estados": 1032,
      "Ela": 1033,
      "din": 1034,
      "ory": 1035,
      "poder": 1036,
      "14": 1037,
      "za": 1038,
      "dem": 1039,
      "deix": 1040,
      "decis": 1041,
      "quê": 1042,
      "does": 1043,
      "because": 1044,
      "Come": 1045,
      "tua": 1046,
      "senhor": 1047,
      "Direc": 1048,
      "CO": 1049,
      "EU": 1050,
      "cos": 1051,
      "long": 1052,
      "às": 1053,
      "ista": 1054,
      "sup": 1055,
      "Quer": 1056,
      "casa": 1057,
      "Senhor": 1058,
      "For": 1059,
      "Ho": 1060,
      "Po": 1061,
      "av": 1062,
      "dest": 1063,
      "hos": 1064,
      "mim": 1065,
      "mul": 1066,
      "és": 1067,
      "ata": 1068,
      "diz": 1069,
      "vers": 1070,
      "pens": 1071,
      "stitu": 1072,
      "Des": 1073,
      "Li": 1074,
      "Ten": 1075,
      "aju": 1076,
      "bas": 1077,
      "cam": 1078,
      "jun": 1079,
      "mit": 1080,
      "situ": 1081,
      "tri": 1082,
      "art": 1083,
      "ato": 1084,
      "tain": 1085,
      "ket": 1086,
      "faz": 1087,
      "tempo": 1088,
      "Conselho": 1089,
      "States": 1090,
      "Bo": 1091,
      "age": 1092,
      "cle": 1093,
      "den": 1094,
      "ions": 1095,
      "estou": 1096,
      "peri": 1097,
      "embros": 1098,
      "relati": 1099,
      "30": 1100,
      "cus": 1101,
      "dut": 1102,
      "inclu": 1103,
      "ança": 1104,
      "tado": 1105,
      "porta": 1106,
      "assim": 1107,
      "clar": 1108,
      "mal": 1109,
      "sin": 1110,
      "ês": 1111,
      "envol": 1112,
      "ana": 1113,
      "cado": 1114,
      "prin": 1115,
      "Ag": 1116,
      "gur": 1117,
      "hom": 1118,
      "national": 1119,
      "pi": 1120,
      "vamos": 1121,
      "outr": 1122,
      "read": 1123,
      "dio": 1124,
      "termin": 1125,
      "propos": 1126,
      "program": 1127,
      "sig": 1128,
      "consider": 1129,
      "something": 1130,
      "Porque": 1131,
      "little": 1132,
      "En": 1133,
      "rit": 1134,
      "ton": 1135,
      "iste": 1136,
      "til": 1137,
      "acor": 1138,
      "mean": 1139,
      "porque": 1140,
      "nada": 1141,
      "euro": 1142,
      "\".": 1143,
      "bil": 1144,
      "gem": 1145,
      "pass": 1146,
      "compe": 1147,
      "unity": 1148,
      "made": 1149,
      "ncil": 1150,
      "Okay": 1151,
      "Então": 1152,
      "18": 1153,
      "ba": 1154,
      "bro": 1155,
      "ies": 1156,
      "las": 1157,
      "ps": 1158,
      "pul": 1159,
      "inu": 1160,
      "thou": 1161,
      "those": 1162,
      "quem": 1163,
      "set": 1164,
      "contra": 1165,
      "cada": 1166,
      "ody": 1167,
      "Le": 1168,
      "Tr": 1169,
      "aut": 1170,
      "bom": 1171,
      "dur": 1172,
      "hou": 1173,
      "ias": 1174,
      "nós": 1175,
      "ras": 1176,
      "sou": 1177,
      "tão": 1178,
      "ável": 1179,
      "too": 1180,
      "hed": 1181,
      "país": 1182,
      "pró": 1183,
      "ative": 1184,
      "ários": 1185,
      "Na": 1186,
      "mé": 1187,
      "nacion": 1188,
      "aram": 1189,
      "aconte": 1190,
      "life": 1191,
      "prote": 1192,
      "cep": 1193,
      "prime": 1194,
      "falar": 1195,
      "Council": 1196,
      "May": 1197,
      "ave": 1198,
      "call": 1199,
      "ned": 1200,
      "ual": 1201,
      "ços": 1202,
      "tipo": 1203,
      "ical": 1204,
      "unca": 1205,
      "soci": 1206,
      "verdade": 1207,
      "ress": 1208,
      "idos": 1209,
      "never": 1210,
      "contro": 1211,
      "ER": 1212,
      "Ma": 1213,
      "On": 1214,
      "bor": 1215,
      "pal": 1216,
      "consegu": 1217,
      "bele": 1218,
      "belie": 1219,
      "000": 1220,
      "public": 1221,
      "Fo": 1222,
      "bus": 1223,
      "far": 1224,
      "ris": 1225,
      "inho": 1226,
      "really": 1227,
      "teu": 1228,
      "fica": 1229,
      "ficar": 1230,
      "apenas": 1231,
      "Estou": 1232,
      "vesti": 1233,
      "didn": 1234,
      "pessoas": 1235,
      "years": 1236,
      "IN": 1237,
      "body": 1238,
      "cy": 1239,
      "two": 1240,
      "organ": 1241,
      "rela": 1242,
      "ques": 1243,
      "dades": 1244,
      "acti": 1245,
      "lay": 1246,
      "such": 1247,
      "serv": 1248,
      "Why": 1249,
      "cts": 1250,
      "Ex": 1251,
      "Pe": 1252,
      "onde": 1253,
      "top": 1254,
      "segun": 1255,
      "well": 1256,
      "estava": 1257,
      "econom": 1258,
      "first": 1259,
      "Don": 1260,
      "cum": 1261,
      "ima": 1262,
      "rem": 1263,
      "tido": 1264,
      "seus": 1265,
      "comp": 1266,
      "lidade": 1267,
      "ular": 1268,
      "log": 1269,
      "abor": 1270,
      "ween": 1271,
      "plic": 1272,
      "ments": 1273,
      "ária": 1274,
      "rough": 1275,
      "trabalho": 1276,
      "Vo": 1277,
      "tes": 1278,
      "inform": 1279,
      "rece": 1280,
      "llow": 1281,
      "gover": 1282,
      "produt": 1283,
      "ador": 1284,
      "Bem": 1285,
      "dent": 1286,
      "ft": 1287,
      "ful": 1288,
      "pou": 1289,
      "put": 1290,
      "sal": 1291,
      "ze": 1292,
      "íli": 1293,
      "through": 1294,
      "tivo": 1295,
      "row": 1296,
      "cham": 1297,
      "Thank": 1298,
      "appro": 1299,
      "prom": 1300,
      "place": 1301,
      "gran": 1302,
      "\",": 1303,
      "Let": 1304,
      "Su": 1305,
      "bit": 1306,
      "even": 1307,
      "fri": 1308,
      "gir": 1309,
      "ie": 1310,
      "land": 1311,
      "té": 1312,
      "actu": 1313,
      "concer": 1314,
      "Now": 1315,
      "embro": 1316,
      "Deus": 1317,
      "idades": 1318,
      "Regulamento": 1319,
      "fuck": 1320,
      "help": 1321,
      "ever": 1322,
      "hand": 1323,
      "lti": 1324,
      "comple": 1325,
      "person": 1326,
      "continu": 1327,
      "between": 1328,
      "União": 1329,
      "God": 1330,
      "last": 1331,
      "rest": 1332,
      "sur": 1333,
      "indo": 1334,
      "segur": 1335,
      "gue": 1336,
      "possi": 1337,
      "presente": 1338,
      "estabele": 1339,
      "ways": 1340,
      "ES": 1341,
      "ev": 1342,
      "gas": 1343,
      "uti": 1344,
      "ura": 1345,
      "ital": 1346,
      "stru": 1347,
      "tura": 1348,
      "apres": 1349,
      "tenho": 1350,
      "Union": 1351,
      "Co": 1352,
      "Yes": 1353,
      "cour": 1354,
      "nome": 1355,
      "essa": 1356,
      "anti": 1357,
      "titu": 1358,
      "noite": 1359,
      "imento": 1360,
      "aplic": 1361,
      "market": 1362,
      "relat": 1363,
      "Para": 1364,
      "----": 1365,
      "after": 1366,
      "emplo": 1367,
      "17": 1368,
      "AN": 1369,
      "Mo": 1370,
      "cha": 1371,
      "dor": 1372,
      "êm": 1373,
      "últi": 1374,
      "informa": 1375,
      "todas": 1376,
      "ries": 1377,
      "ped": 1378,
      "iros": 1379,
      "ceu": 1380,
      "eles": 1381,
      "believe": 1382,
      "Car": 1383,
      "My": 1384,
      "Obri": 1385,
      "Per": 1386,
      "TH": 1387,
      "Uma": 1388,
      "Who": 1389,
      "ainda": 1390,
      "dom": 1391,
      "fami": 1392,
      "less": 1393,
      "ny": 1394,
      "ener": 1395,
      "quanto": 1396,
      "being": 1397,
      "before": 1398,
      "lop": 1399,
      "disso": 1400,
      "much": 1401,
      "quero": 1402,
      "give": 1403,
      "Um": 1404,
      "bon": 1405,
      "bab": 1406,
      "ip": 1407,
      "ild": 1408,
      "ks": 1409,
      "ud": 1410,
      "report": 1411,
      "difer": 1412,
      "parte": 1413,
      "pedi": 1414,
      "guém": 1415,
      "many": 1416,
      "Community": 1417,
      "Tenho": 1418,
      "Você": 1419,
      "RO": 1420,
      "apo": 1421,
      "ban": 1422,
      "great": 1423,
      "ham": 1424,
      "kes": 1425,
      "ken": 1426,
      "sos": 1427,
      "çar": 1428,
      "investi": 1429,
      "thor": 1430,
      "regar": 1431,
      "told": 1432,
      "alter": 1433,
      "direc": 1434,
      "main": 1435,
      "prof": 1436,
      "polic": 1437,
      "pai": 1438,
      "caso": 1439,
      "night": 1440,
      "mercado": 1441,
      "friend": 1442,
      "bar": 1443,
      "base": 1444,
      "home": 1445,
      "ile": 1446,
      "order": 1447,
      "depu": 1448,
      "ished": 1449,
      "total": 1450,
      "head": 1451,
      "lly": 1452,
      "polí": 1453,
      "tru": 1454,
      "outro": 1455,
      "duz": 1456,
      "finan": 1457,
      "Isso": 1458,
      "ready": 1459,
      "Jo": 1460,
      "Mu": 1461,
      "Ser": 1462,
      "nunca": 1463,
      "show": 1464,
      "tin": 1465,
      "tro": 1466,
      "ures": 1467,
      "wan": 1468,
      "ér": 1469,
      "paz": 1470,
      "feel": 1471,
      "side": 1472,
      "ticas": 1473,
      "Isto": 1474,
      "differ": 1475,
      "alguma": 1476,
      "Look": 1477,
      "mãe": 1478,
      "utiliz": 1479,
      "Lu": 1480,
      "Membros": 1481,
      "Ou": 1482,
      "Tal": 1483,
      "apro": 1484,
      "gor": 1485,
      "lan": 1486,
      "mom": 1487,
      "nex": 1488,
      "pú": 1489,
      "ral": 1490,
      "tre": 1491,
      "esper": 1492,
      "orig": 1493,
      "dele": 1494,
      "deci": 1495,
      "depois": 1496,
      "meas": 1497,
      "cimento": 1498,
      "parti": 1499,
      "usti": 1500,
      "ncias": 1501,
      "adop": 1502,
      "estás": 1503,
      "sempre": 1504,
      "speci": 1505,
      "again": 1506,
      "Acho": 1507,
      "az": 1508,
      "ive": 1509,
      "kill": 1510,
      "lon": 1511,
      "nat": 1512,
      "sp": 1513,
      "encontr": 1514,
      "atr": 1515,
      "accor": 1516,
      "provi": 1517,
      "desenvol": 1518,
      "gação": 1519,
      "present": 1520,
      "case": 1521,
      "nio": 1522,
      "objec": 1523,
      "menos": 1524,
      "culpa": 1525,
      "guns": 1526,
      "mulher": 1527,
      "IS": 1528,
      "Já": 1529,
      "TI": 1530,
      "aque": 1531,
      "care": 1532,
      "each": 1533,
      "fre": 1534,
      "fam": 1535,
      "ith": 1536,
      "lamento": 1537,
      "ân": 1538,
      "doing": 1539,
      "empre": 1540,
      "secon": 1541,
      "ings": 1542,
      "partic": 1543,
      "uni": 1544,
      "liament": 1545,
      "resul": 1546,
      "suas": 1547,
      "why": 1548,
      "poss": 1549,
      "oney": 1550,
      "temos": 1551,
      "follow": 1552,
      "Europeia": 1553,
      "human": 1554,
      "acordo": 1555,
      "europe": 1556,
      "information": 1557,
      "grande": 1558,
      "Jul": 1559,
      "OR": 1560,
      "Só": 1561,
      "own": 1562,
      "rar": 1563,
      "tou": 1564,
      "uh": 1565,
      "vamente": 1566,
      "esp": 1567,
      "ale": 1568,
      "view": 1569,
      "Not": 1570,
      "Where": 1571,
      "minis": 1572,
      "bilidade": 1573,
      "anything": 1574,
      "still": 1575,
      "coisas": 1576,
      "amentos": 1577,
      "happen": 1578,
      "princi": 1579,
      "thought": 1580,
      "Of": 1581,
      "Sh": 1582,
      "gg": 1583,
      "mg": 1584,
      "nal": 1585,
      "pur": 1586,
      "rong": 1587,
      "same": 1588,
      "van": 1589,
      "aste": 1590,
      "determin": 1591,
      "quis": 1592,
      "tex": 1593,
      "sector": 1594,
      "ices": 1595,
      "sol": 1596,
      "solu": 1597,
      "popul": 1598,
      "pay": 1599
    },
    "merges": [
      [
        "e",
        "r"
      ],
      [
        "e",
        "s"
      ],
      [
        "i",
        "n"
      ],
      [
        "t",
        "h"
      ],
      [
        "e",
        "n"
      ],
      [
        "o",
        "n"
      ],
      [
        "a",
        "n"
      ],
      [
        "a",
        "r"
      ],
      [
        "o",
        "r"
      ],
      [
        "a",
        "s"
      ],
      [
        "d",
        "e"
      ],
      [
        "i",
        "s"
      ],
      [
        "o",
        "s"
      ],
      [
        "o",
        "u"
      ],
      [
        "a",
        "t"
      ],
      [
        "r",
        "e"
      ],
      [
        "t",
        "o"
      ],
      [
        "a",
        "l"
      ],
      [
        "th",
        "e"
      ],
      [
        "q",
        "u"
      ],
      [
        "t",
        "e"
      ],
      [
        "o",
        "m"
      ],
      [
        "d",
        "o"
      ],
      [
        "ã",
        "o"
      ],
      [
        "t",
        "i"
      ],
      [
        "e",
        "m"
      ],
      [
        "d",
        "a"
      ],
      [
        "s",
        "e"
      ],
      [
        "a",
        "m"
      ],
      [
        "r",
        "o"
      ],
      [
        "i",
        "t"
      ],
      [
        "in",
        "g"
      ],
      [
        "i",
        "c"
      ],
      [
        "qu",
        "e"
      ],
      [
        "l",
        "e"
      ],
      [
        "o",
        "f"
      ],
      [
        "u",
        "m"
      ],
      [
        "v",
        "e"
      ],
      [
        "t",
        "a"
      ],
      [
        "a",
        "c"
      ],
      [
        "r",
        "i"
      ],
      [
        "an",
        "d"
      ],
      [
        "en",
        "t"
      ],
      [
        "n",
        "o"
      ],
      [
        "m",
        "e"
      ],
      [
        "c",
        "om"
      ],
      [
        "h",
        "e"
      ],
      [
        ".",
        "."
      ],
      [
        "y",
        "ou"
      ],
      [
        "c",
        "on"
      ],
      [
        "r",
        "a"
      ],
      [
        "d",
        "i"
      ],
      [
        "c",
        "i"
      ],
      [
        "b",
        "e"
      ],
      [
        "p",
        "ar"
      ],
      [
        "s",
        "t"
      ],
      [
        "i",
        "on"
      ],
      [
        "p",
        "e"
      ],
      [
        "f",
        "or"
      ],
      [
        "u",
        "n"
      ],
      [
        "s",
        "o"
      ],
      [
        "l",
        "i"
      ],
      [
        "h",
        "a"
      ],
      [
        "l",
        "l"
      ],
      [
        "e",
        "d"
      ],
      [
        "m",
        "a"
      ],
      [
        "t",
        "er"
      ],
      [
        "es",
        "t"
      ],
      [
        "g",
        "o"
      ],
      [
        "i",
        "m"
      ],
      [
        "v",
        "er"
      ],
      [
        "p",
        "ro"
      ],
      [
        "u",
        "l"
      ],
      [
        "ç",
        "ão"
      ],
      [
        "r",
        "es"
      ],
      [
        "h",
        "o"
      ],
      [
        "l",
        "o"
      ],
      [
        "a",
        "d"
      ],
      [
        "p",
        "o"
      ],
      [
        "i",
        "r"
      ],
      [
        "u",
        "s"
      ],
      [
        "c",
        "e"
      ],
      [
        "p",
        "or"
      ],
      [
        "a",
        "b"
      ],
      [
        "en",
        "te"
      ],
      [
        "u",
        "r"
      ],
      [
        "..",
        "."
      ],
      [
        "th",
        "at"
      ],
      [
        "par",
        "a"
      ],
      [
        "i",
        "d"
      ],
      [
        "n",
        "ão"
      ],
      [
        "i",
        "a"
      ],
      [
        "er",
        "e"
      ],
      [
        "c",
        "a"
      ],
      [
        "l",
        "y"
      ],
      [
        "p",
        "er"
      ],
      [
        "c",
        "o"
      ],
      [
        "w",
        "i"
      ],
      [
        "at",
        "ion"
      ],
      [
        "t",
        "r"
      ],
      [
        "l",
        "a"
      ],
      [
        "um",
        "a"
      ],
      [
        "s",
        "u"
      ],
      [
        "d",
        "os"
      ],
      [
        "u",
        "t"
      ],
      [
        "c",
        "h"
      ],
      [
        "e",
        "x"
      ],
      [
        "g",
        "h"
      ],
      [
        "w",
        "h"
      ],
      [
        "k",
        "e"
      ],
      [
        "l",
        "d"
      ],
      [
        "s",
        "a"
      ],
      [
        "n",
        "e"
      ],
      [
        "v",
        "i"
      ],
      [
        "d",
        "es"
      ],
      [
        "w",
        "e"
      ],
      [
        "g",
        "e"
      ],
      [
        "C",
        "om"
      ],
      [
        "n",
        "a"
      ],
      [
        "v",
        "a"
      ],
      [
        "v",
        "o"
      ],
      [
        "ou",
        "t"
      ],
      [
        "t",
        "u"
      ],
      [
        "g",
        "u"
      ],
      [
        "ar",
        "e"
      ],
      [
        "p",
        "a"
      ],
      [
        "f",
        "e"
      ],
      [
        "0",
        "0"
      ],
      [
        "al",
        "l"
      ],
      [
        "i",
        "l"
      ],
      [
        "m",
        "o"
      ],
      [
        "an",
        "t"
      ],
      [
        "wi",
        "th"
      ],
      [
        "s",
        "er"
      ],
      [
        "õ",
        "es"
      ],
      [
        "ti",
        "on"
      ],
      [
        "p",
        "os"
      ],
      [
        "es",
        "s"
      ],
      [
        "T",
        "he"
      ],
      [
        "T",
        "h"
      ],
      [
        "p",
        "re"
      ],
      [
        "gh",
        "t"
      ],
      [
        "N",
        "ão"
      ],
      [
        "Y",
        "ou"
      ],
      [
        "f",
        "ic"
      ],
      [
        "on",
        "e"
      ],
      [
        "f",
        "a"
      ],
      [
        "th",
        "is"
      ],
      [
        "en",
        "to"
      ],
      [
        "E",
        "u"
      ],
      [
        "a",
        "p"
      ],
      [
        "u",
        "st"
      ],
      [
        "no",
        "t"
      ],
      [
        "d",
        "as"
      ],
      [
        "N",
        "o"
      ],
      [
        "s",
        "i"
      ],
      [
        "p",
        "r"
      ],
      [
        "d",
        "er"
      ],
      [
        "g",
        "a"
      ],
      [
        "no",
        "w"
      ],
      [
        "da",
        "de"
      ],
      [
        "d",
        "is"
      ],
      [
        "W",
        "h"
      ],
      [
        "w",
        "as"
      ],
      [
        "ha",
        "ve"
      ],
      [
        "at",
        "e"
      ],
      [
        "f",
        "r"
      ],
      [
        "o",
        "d"
      ],
      [
        "p",
        "l"
      ],
      [
        "is",
        "s"
      ],
      [
        "a",
        "y"
      ],
      [
        "te",
        "m"
      ],
      [
        "th",
        "er"
      ],
      [
        "m",
        "in"
      ],
      [
        "ou",
        "ld"
      ],
      [
        "g",
        "r"
      ],
      [
        "c",
        "er"
      ],
      [
        "om",
        "e"
      ],
      [
        "c",
        "t"
      ],
      [
        "t",
        "en"
      ],
      [
        "s",
        "h"
      ],
      [
        "em",
        "b"
      ],
      [
        "a",
        "ção"
      ],
      [
        "n",
        "d"
      ],
      [
        "f",
        "o"
      ],
      [
        "e",
        "l"
      ],
      [
        "ç",
        "ões"
      ],
      [
        "i",
        "to"
      ],
      [
        "ti",
        "c"
      ],
      [
        "n",
        "os"
      ],
      [
        "f",
        "er"
      ],
      [
        "m",
        "an"
      ],
      [
        "c",
        "an"
      ],
      [
        "qu",
        "i"
      ],
      [
        "as",
        "s"
      ],
      [
        "l",
        "u"
      ],
      [
        "d",
        "u"
      ],
      [
        "Q",
        "u"
      ],
      [
        "t",
        "ra"
      ],
      [
        "W",
        "e"
      ],
      [
        "m",
        "y"
      ],
      [
        "ou",
        "r"
      ],
      [
        "e",
        "u"
      ],
      [
        "am",
        "os"
      ],
      [
        "E",
        "s"
      ],
      [
        "I",
        "t"
      ],
      [
        "n",
        "ci"
      ],
      [
        "z",
        "er"
      ],
      [
        "at",
        "i"
      ],
      [
        "D",
        "e"
      ],
      [
        "m",
        "ent"
      ],
      [
        "p",
        "res"
      ],
      [
        "a",
        "g"
      ],
      [
        "u",
        "p"
      ],
      [
        "b",
        "l"
      ],
      [
        "h",
        "or"
      ],
      [
        "es",
        "ta"
      ],
      [
        "you",
        "r"
      ],
      [
        "a",
        "do"
      ],
      [
        "p",
        "en"
      ],
      [
        "k",
        "now"
      ],
      [
        "ma",
        "is"
      ],
      [
        "est",
        "á"
      ],
      [
        "b",
        "y"
      ],
      [
        "c",
        "as"
      ],
      [
        "R",
        "e"
      ],
      [
        "por",
        "t"
      ],
      [
        "c",
        "or"
      ],
      [
        "o",
        "l"
      ],
      [
        "f",
        "i"
      ],
      [
        "m",
        "u"
      ],
      [
        "it",
        "y"
      ],
      [
        "H",
        "e"
      ],
      [
        "te",
        "d"
      ],
      [
        "e",
        "t"
      ],
      [
        "2",
        "00"
      ],
      [
        "n",
        "i"
      ],
      [
        "com",
        "o"
      ],
      [
        "1",
        "9"
      ],
      [
        "m",
        "or"
      ],
      [
        "is",
        "t"
      ],
      [
        "Eu",
        "ro"
      ],
      [
        "b",
        "o"
      ],
      [
        "m",
        "os"
      ],
      [
        "th",
        "ing"
      ],
      [
        "o",
        "k"
      ],
      [
        "E",
        "st"
      ],
      [
        "h",
        "as"
      ],
      [
        "c",
        "ar"
      ],
      [
        "g",
        "ar"
      ],
      [
        "v",
        "en"
      ],
      [
        "am",
        "ento"
      ],
      [
        "á",
        "ri"
      ],
      [
        "qu",
        "er"
      ],
      [
        "p",
        "ri"
      ],
      [
        "I",
        "n"
      ],
      [
        "o",
        "b"
      ],
      [
        "a",
        "o"
      ],
      [
        "in",
        "ter"
      ],
      [
        "Wh",
        "at"
      ],
      [
        "m",
        "as"
      ],
      [
        "f",
        "in"
      ],
      [
        "ve",
        "l"
      ],
      [
        "b",
        "i"
      ],
      [
        "re",
        "c"
      ],
      [
        "é",
        "m"
      ],
      [
        "h",
        "er"
      ],
      [
        "b",
        "re"
      ],
      [
        "p",
        "le"
      ],
      [
        "g",
        "i"
      ],
      [
        "C",
        "on"
      ],
      [
        "c",
        "k"
      ],
      [
        "ç",
        "a"
      ],
      [
        "u",
        "se"
      ],
      [
        "m",
        "i"
      ],
      [
        "w",
        "or"
      ],
      [
        "fr",
        "om"
      ],
      [
        "m",
        "ar"
      ],
      [
        "al",
        "i"
      ],
      [
        "Euro",
        "pe"
      ],
      [
        "j",
        "ust"
      ],
      [
        "an",
        "do"
      ],
      [
        "ge",
        "t"
      ],
      [
        "con",
        "t"
      ],
      [
        "m",
        "ente"
      ],
      [
        "an",
        "s"
      ],
      [
        "b",
        "em"
      ],
      [
        "g",
        "ul"
      ],
      [
        "r",
        "u"
      ],
      [
        "a",
        "da"
      ],
      [
        "m",
        "es"
      ],
      [
        "v",
        "is"
      ],
      [
        "wh",
        "at"
      ],
      [
        "t",
        "al"
      ],
      [
        "ab",
        "out"
      ],
      [
        "d",
        "on"
      ],
      [
        "e",
        "le"
      ],
      [
        "ic",
        "h"
      ],
      [
        "con",
        "s"
      ],
      [
        "ac",
        "k"
      ],
      [
        "S",
        "e"
      ],
      [
        "li",
        "ke"
      ],
      [
        "c",
        "l"
      ],
      [
        "w",
        "n"
      ],
      [
        "m",
        "en"
      ],
      [
        "wi",
        "ll"
      ],
      [
        "A",
        "nd"
      ],
      [
        "j",
        "e"
      ],
      [
        "b",
        "ut"
      ],
      [
        "a",
        "is"
      ],
      [
        "es",
        "te"
      ],
      [
        "n",
        "t"
      ],
      [
        "Com",
        "m"
      ],
      [
        "s",
        "ome"
      ],
      [
        "s",
        "en"
      ],
      [
        "A",
        "r"
      ],
      [
        "m",
        "er"
      ],
      [
        "is",
        "so"
      ],
      [
        "th",
        "ere"
      ],
      [
        "nci",
        "a"
      ],
      [
        "s",
        "ão"
      ],
      [
        "re",
        "l"
      ],
      [
        "ver",
        "y"
      ],
      [
        "P",
        "ar"
      ],
      [
        "am",
        "ente"
      ],
      [
        "ri",
        "ght"
      ],
      [
        "vo",
        "l"
      ],
      [
        "b",
        "er"
      ],
      [
        "v",
        "es"
      ],
      [
        "ic",
        "a"
      ],
      [
        "ve",
        "z"
      ],
      [
        "ad",
        "os"
      ],
      [
        "fo",
        "i"
      ],
      [
        "P",
        "or"
      ],
      [
        "in",
        "k"
      ],
      [
        "se",
        "l"
      ],
      [
        "h",
        "ere"
      ],
      [
        "i",
        "x"
      ],
      [
        "an",
        "ce"
      ],
      [
        "A",
        "R"
      ],
      [
        "i",
        "g"
      ],
      [
        "p",
        "u"
      ],
      [
        "t",
        "ar"
      ],
      [
        "or",
        "a"
      ],
      [
        "c",
        "is"
      ],
      [
        "d",
        "ic"
      ],
      [
        "al",
        "ly"
      ],
      [
        "as",
        "e"
      ],
      [
        "wh",
        "ich"
      ],
      [
        "p",
        "on"
      ],
      [
        "an",
        "te"
      ],
      [
        "so",
        "bre"
      ],
      [
        "c",
        "he"
      ],
      [
        "w",
        "ay"
      ],
      [
        "i",
        "f"
      ],
      [
        "am",
        "e"
      ],
      [
        "c",
        "ess"
      ],
      [
        "c",
        "r"
      ],
      [
        "f",
        "ac"
      ],
      [
        "g",
        "ra"
      ],
      [
        "i",
        "o"
      ],
      [
        "m",
        "on"
      ],
      [
        "t",
        "s"
      ],
      [
        "fa",
        "zer"
      ],
      [
        "y",
        "s"
      ],
      [
        "an",
        "y"
      ],
      [
        "as",
        "t"
      ],
      [
        "the",
        "y"
      ],
      [
        "po",
        "de"
      ],
      [
        "a",
        "qui"
      ],
      [
        "go",
        "t"
      ],
      [
        "ci",
        "al"
      ],
      [
        "se",
        "gu"
      ],
      [
        "iss",
        "ion"
      ],
      [
        "c",
        "ou"
      ],
      [
        "l",
        "ic"
      ],
      [
        "in",
        "e"
      ],
      [
        "c",
        "u"
      ],
      [
        "p",
        "es"
      ],
      [
        "i",
        "ro"
      ],
      [
        "r",
        "an"
      ],
      [
        "ê",
        "ncia"
      ],
      [
        "Es",
        "ta"
      ],
      [
        "I",
        "s"
      ],
      [
        "c",
        "re"
      ],
      [
        "c",
        "ul"
      ],
      [
        "en",
        "s"
      ],
      [
        "e",
        "ar"
      ],
      [
        "g",
        "un"
      ],
      [
        "o",
        "ther"
      ],
      [
        "en",
        "d"
      ],
      [
        "di",
        "d"
      ],
      [
        "s",
        "em"
      ],
      [
        "emb",
        "er"
      ],
      [
        "c",
        "ê"
      ],
      [
        "e",
        "a"
      ],
      [
        "s",
        "ti"
      ],
      [
        "-",
        "-"
      ],
      [
        "h",
        "ar"
      ],
      [
        "h",
        "is"
      ],
      [
        "h",
        "im"
      ],
      [
        "o",
        "w"
      ],
      [
        "h",
        "i"
      ],
      [
        "k",
        "ing"
      ],
      [
        "on",
        "g"
      ],
      [
        "ou",
        "s"
      ],
      [
        "ent",
        "es"
      ],
      [
        "de",
        "d"
      ],
      [
        "f",
        "un"
      ],
      [
        "mu",
        "ito"
      ],
      [
        "m",
        "at"
      ],
      [
        "or",
        "es"
      ],
      [
        "r",
        "y"
      ],
      [
        "w",
        "ould"
      ],
      [
        "ti",
        "ve"
      ],
      [
        "19",
        "9"
      ],
      [
        "th",
        "ink"
      ],
      [
        "B",
        "AR"
      ],
      [
        "com",
        "e"
      ],
      [
        "be",
        "en"
      ],
      [
        "A",
        "s"
      ],
      [
        "su",
        "a"
      ],
      [
        "_",
        "BAR"
      ],
      [
        "i",
        "ll"
      ],
      [
        "j",
        "u"
      ],
      [
        "em",
        "ent"
      ],
      [
        "_BAR",
        "_"
      ],
      [
        "M",
        "as"
      ],
      [
        "ad",
        "as"
      ],
      [
        "Th",
        "is"
      ],
      [
        "i",
        "da"
      ],
      [
        "w",
        "ant"
      ],
      [
        "b",
        "al"
      ],
      [
        "2",
        "0"
      ],
      [
        "D",
        "i"
      ],
      [
        "at",
        "ed"
      ],
      [
        "su",
        "b"
      ],
      [
        "a",
        "u"
      ],
      [
        "i",
        "ra"
      ],
      [
        "l",
        "es"
      ],
      [
        "me",
        "u"
      ],
      [
        "for",
        "m"
      ],
      [
        "O",
        "h"
      ],
      [
        "S",
        "t"
      ],
      [
        "o",
        "p"
      ],
      [
        "s",
        "on"
      ],
      [
        "ti",
        "go"
      ],
      [
        "am",
        "b"
      ],
      [
        "pro",
        "du"
      ],
      [
        "ti",
        "me"
      ],
      [
        "iss",
        "ão"
      ],
      [
        "f",
        "al"
      ],
      [
        "l",
        "á"
      ],
      [
        "Est",
        "á"
      ],
      [
        "E",
        "C"
      ],
      [
        "ti",
        "r"
      ],
      [
        "tr",
        "ans"
      ],
      [
        "Re",
        "gul"
      ],
      [
        "ar",
        "d"
      ],
      [
        "os",
        "e"
      ],
      [
        "c",
        "es"
      ],
      [
        ")",
        ","
      ],
      [
        "f",
        "u"
      ],
      [
        "re",
        "d"
      ],
      [
        "r",
        "en"
      ],
      [
        "w",
        "ho"
      ],
      [
        "ó",
        "s"
      ],
      [
        "r",
        "ou"
      ],
      [
        "mor",
        "e"
      ],
      [
        "S",
        "o"
      ],
      [
        "c",
        "ri"
      ],
      [
        "w",
        "ere"
      ],
      [
        "is",
        "to"
      ],
      [
        "ne",
        "ed"
      ],
      [
        "in",
        "a"
      ],
      [
        "an",
        "to"
      ],
      [
        "ç",
        "o"
      ],
      [
        "ation",
        "s"
      ],
      [
        "ant",
        "es"
      ],
      [
        "b",
        "le"
      ],
      [
        "o",
        "ver"
      ],
      [
        "M",
        "ar"
      ],
      [
        "t",
        "os"
      ],
      [
        "v",
        "al"
      ],
      [
        "es",
        "e"
      ],
      [
        "se",
        "u"
      ],
      [
        "r",
        "os"
      ],
      [
        "an",
        "os"
      ],
      [
        "ac",
        "e"
      ],
      [
        "er",
        "s"
      ],
      [
        "it",
        "os"
      ],
      [
        "ri",
        "o"
      ],
      [
        "C",
        "E"
      ],
      [
        "ac",
        "h"
      ],
      [
        "ent",
        "re"
      ],
      [
        "ha",
        "d"
      ],
      [
        "ho",
        "w"
      ],
      [
        "ea",
        "h"
      ],
      [
        "A",
        "l"
      ],
      [
        "em",
        "os"
      ],
      [
        "for",
        "ma"
      ],
      [
        "Th",
        "at"
      ],
      [
        "E",
        "le"
      ],
      [
        "c",
        "al"
      ],
      [
        "in",
        "d"
      ],
      [
        "in",
        "t"
      ],
      [
        "j",
        "o"
      ],
      [
        "A",
        "n"
      ],
      [
        "c",
        "tion"
      ],
      [
        "ou",
        "nd"
      ],
      [
        "the",
        "m"
      ],
      [
        "se",
        "e"
      ],
      [
        "B",
        "ut"
      ],
      [
        "i",
        "dade"
      ],
      [
        "l",
        "he"
      ],
      [
        "g",
        "os"
      ],
      [
        "ic",
        "o"
      ],
      [
        "est",
        "ão"
      ],
      [
        "co",
        "is"
      ],
      [
        "a",
        "f"
      ],
      [
        "er",
        "a"
      ],
      [
        "it",
        "s"
      ],
      [
        "go",
        "od"
      ],
      [
        "sh",
        "ould"
      ],
      [
        "Ar",
        "tic"
      ],
      [
        "b",
        "ack"
      ],
      [
        "i",
        "te"
      ],
      [
        "Comm",
        "ission"
      ],
      [
        "d",
        "ar"
      ],
      [
        "s",
        "im"
      ],
      [
        "s",
        "ab"
      ],
      [
        "en",
        "ta"
      ],
      [
        "an",
        "k"
      ],
      [
        "pe",
        "lo"
      ],
      [
        "j",
        "a"
      ],
      [
        "ic",
        "e"
      ],
      [
        "am",
        "ent"
      ],
      [
        "un",
        "der"
      ],
      [
        "ca",
        "use"
      ],
      [
        "Europe",
        "an"
      ],
      [
        "g",
        "on"
      ],
      [
        "s",
        "ó"
      ],
      [
        "in",
        "to"
      ],
      [
        "Com",
        "issão"
      ],
      [
        "b",
        "r"
      ],
      [
        "g",
        "an"
      ],
      [
        "t",
        "y"
      ],
      [
        "do",
        "wn"
      ],
      [
        "M",
        "r"
      ],
      [
        "b",
        "u"
      ],
      [
        "s",
        "pe"
      ],
      [
        "re",
        "fer"
      ],
      [
        "1",
        "2"
      ],
      [
        "s",
        "he"
      ],
      [
        "S",
        "im"
      ],
      [
        "h",
        "um"
      ],
      [
        "t",
        "or"
      ],
      [
        "sh",
        "all"
      ],
      [
        "c",
        "lu"
      ],
      [
        "at",
        "es"
      ],
      [
        "ta",
        "ke"
      ],
      [
        "me",
        "l"
      ],
      [
        "con",
        "tr"
      ],
      [
        "di",
        "re"
      ],
      [
        "tu",
        "do"
      ],
      [
        "min",
        "ha"
      ],
      [
        "We",
        "ll"
      ],
      [
        "=",
        "="
      ],
      [
        "c",
        "ur"
      ],
      [
        "d",
        "ing"
      ],
      [
        "g",
        "en"
      ],
      [
        "par",
        "e"
      ],
      [
        "im",
        "port"
      ],
      [
        "amb",
        "ém"
      ],
      [
        "t",
        "ing"
      ],
      [
        "n",
        "ing"
      ],
      [
        "res",
        "id"
      ],
      [
        "ári",
        "o"
      ],
      [
        "u",
        "re"
      ],
      [
        "v",
        "id"
      ],
      [
        "de",
        "ve"
      ],
      [
        "re",
        "at"
      ],
      [
        "Y",
        "eah"
      ],
      [
        "is",
        "h"
      ],
      [
        "ab",
        "le"
      ],
      [
        "wor",
        "k"
      ],
      [
        "v",
        "os"
      ],
      [
        "di",
        "a"
      ],
      [
        "Artic",
        "le"
      ],
      [
        "l",
        "ar"
      ],
      [
        "ar",
        "y"
      ],
      [
        "ri",
        "a"
      ],
      [
        "1",
        "0"
      ],
      [
        "v",
        "ing"
      ],
      [
        "c",
        "ould"
      ],
      [
        "o",
        "per"
      ],
      [
        "ti",
        "es"
      ],
      [
        "ac",
        "ion"
      ],
      [
        "T",
        "o"
      ],
      [
        "b",
        "ri"
      ],
      [
        "c",
        "ent"
      ],
      [
        "í",
        "s"
      ],
      [
        "i",
        "z"
      ],
      [
        "be",
        "t"
      ],
      [
        "for",
        "e"
      ],
      [
        "vi",
        "da"
      ],
      [
        "pes",
        "so"
      ],
      [
        "P",
        "ro"
      ],
      [
        "e",
        "la"
      ],
      [
        "j",
        "á"
      ],
      [
        "v",
        "ar"
      ],
      [
        "an",
        "o"
      ],
      [
        "di",
        "zer"
      ],
      [
        "par",
        "t"
      ],
      [
        "lo",
        "ok"
      ],
      [
        "po",
        "is"
      ],
      [
        "bl",
        "em"
      ],
      [
        "gon",
        "na"
      ],
      [
        "S",
        "he"
      ],
      [
        "t",
        "ambém"
      ],
      [
        "ic",
        "k"
      ],
      [
        "le",
        "g"
      ],
      [
        "va",
        "i"
      ],
      [
        "pos",
        "i"
      ],
      [
        "t",
        "le"
      ],
      [
        "y",
        "ear"
      ],
      [
        "se",
        "i"
      ],
      [
        "pro",
        "blem"
      ],
      [
        "Qu",
        "e"
      ],
      [
        "E",
        "m"
      ],
      [
        "in",
        "s"
      ],
      [
        "en",
        "ce"
      ],
      [
        "re",
        "e"
      ],
      [
        "da",
        "y"
      ],
      [
        "D",
        "o"
      ],
      [
        "c",
        "ho"
      ],
      [
        "le",
        "t"
      ],
      [
        "li",
        "e"
      ],
      [
        "go",
        "ing"
      ],
      [
        "mel",
        "hor"
      ],
      [
        "U",
        "n"
      ],
      [
        "p",
        "as"
      ],
      [
        "am",
        "i"
      ],
      [
        "U",
        "ni"
      ],
      [
        "v",
        "as"
      ],
      [
        "í",
        "ci"
      ],
      [
        "it",
        "u"
      ],
      [
        "ne",
        "w"
      ],
      [
        "e",
        "p"
      ],
      [
        "t",
        "as"
      ],
      [
        "in",
        "ha"
      ],
      [
        "the",
        "ir"
      ],
      [
        "ma",
        "ke"
      ],
      [
        "sa",
        "y"
      ],
      [
        "The",
        "y"
      ],
      [
        "tra",
        "bal"
      ],
      [
        "qu",
        "al"
      ],
      [
        "vo",
        "cê"
      ],
      [
        "mes",
        "mo"
      ],
      [
        "1",
        "1"
      ],
      [
        "p",
        "h"
      ],
      [
        "ali",
        "z"
      ],
      [
        "g",
        "er"
      ],
      [
        "i",
        "de"
      ],
      [
        "v",
        "ir"
      ],
      [
        "li",
        "z"
      ],
      [
        "res",
        "pe"
      ],
      [
        "ct",
        "or"
      ],
      [
        "C",
        "h"
      ],
      [
        "P",
        "resid"
      ],
      [
        "m",
        "ento"
      ],
      [
        "on",
        "ly"
      ],
      [
        "ent",
        "ar"
      ],
      [
        "e",
        "f"
      ],
      [
        "i",
        "or"
      ],
      [
        "m",
        "ust"
      ],
      [
        "o",
        "ple"
      ],
      [
        "t",
        "ur"
      ],
      [
        "v",
        "or"
      ],
      [
        "con",
        "ta"
      ],
      [
        "O",
        "s"
      ],
      [
        "f",
        "il"
      ],
      [
        "l",
        "os"
      ],
      [
        "í",
        "vel"
      ],
      [
        "in",
        "da"
      ],
      [
        "to",
        "dos"
      ],
      [
        "it",
        "ar"
      ],
      [
        "le",
        "d"
      ],
      [
        "ca",
        "p"
      ],
      [
        "M",
        "ember"
      ],
      [
        "n",
        "um"
      ],
      [
        "in",
        "st"
      ],
      [
        "it",
        "a"
      ],
      [
        "wh",
        "ere"
      ],
      [
        "tion",
        "s"
      ],
      [
        "1",
        "3"
      ],
      [
        "B",
        "e"
      ],
      [
        "a",
        "i"
      ],
      [
        "e",
        "w"
      ],
      [
        "is",
        "e"
      ],
      [
        "at",
        "ing"
      ],
      [
        "G",
        "o"
      ],
      [
        "c",
        "ed"
      ],
      [
        "i",
        "do"
      ],
      [
        "n",
        "or"
      ],
      [
        "qu",
        "ando"
      ],
      [
        "ation",
        "al"
      ],
      [
        "e",
        "con"
      ],
      [
        "n",
        "as"
      ],
      [
        "p",
        "an"
      ],
      [
        "re",
        "g"
      ],
      [
        "con",
        "he"
      ],
      [
        "di",
        "f"
      ],
      [
        "A",
        "ll"
      ],
      [
        "f",
        "ir"
      ],
      [
        "i",
        "al"
      ],
      [
        "ma",
        "y"
      ],
      [
        "co",
        "l"
      ],
      [
        "wh",
        "en"
      ],
      [
        "ne",
        "cess"
      ],
      [
        "gr",
        "am"
      ],
      [
        "O",
        "k"
      ],
      [
        "T",
        "u"
      ],
      [
        "a",
        "ções"
      ],
      [
        "d",
        "s"
      ],
      [
        "i",
        "ght"
      ],
      [
        "in",
        "te"
      ],
      [
        "th",
        "an"
      ],
      [
        "me",
        "di"
      ],
      [
        "est",
        "ar"
      ],
      [
        "es",
        "se"
      ],
      [
        "es",
        "pe"
      ],
      [
        "on",
        "te"
      ],
      [
        "at",
        "é"
      ],
      [
        "ve",
        "d"
      ],
      [
        "pe",
        "la"
      ],
      [
        "Com",
        "o"
      ],
      [
        "fe",
        "c"
      ],
      [
        "h",
        "á"
      ],
      [
        "w",
        "o"
      ],
      [
        "at",
        "er"
      ],
      [
        "E",
        "nt"
      ],
      [
        "I",
        "f"
      ],
      [
        "a",
        "os"
      ],
      [
        "m",
        "il"
      ],
      [
        "en",
        "ti"
      ],
      [
        "al",
        "g"
      ],
      [
        "ha",
        "p"
      ],
      [
        "id",
        "er"
      ],
      [
        "sa",
        "id"
      ],
      [
        "I",
        "I"
      ],
      [
        "l",
        "í"
      ],
      [
        "n",
        "er"
      ],
      [
        "ar",
        "tigo"
      ],
      [
        "pe",
        "ople"
      ],
      [
        "tr",
        "y"
      ],
      [
        "cou",
        "nt"
      ],
      [
        "V",
        "amos"
      ],
      [
        "a",
        "ga"
      ],
      [
        "of",
        "f"
      ],
      [
        "com",
        "un"
      ],
      [
        "e",
        "very"
      ],
      [
        "s",
        "or"
      ],
      [
        "v",
        "ou"
      ],
      [
        "te",
        "ll"
      ],
      [
        "ent",
        "s"
      ],
      [
        "st",
        "and"
      ],
      [
        "dis",
        "se"
      ],
      [
        "1",
        "5"
      ],
      [
        "m",
        "un"
      ],
      [
        "re",
        "gul"
      ],
      [
        "ac",
        "t"
      ],
      [
        "res",
        "pon"
      ],
      [
        "S",
        "en"
      ],
      [
        "ó",
        "rio"
      ],
      [
        "al",
        "mente"
      ],
      [
        "ve",
        "is"
      ],
      [
        "fa",
        "vor"
      ],
      [
        "ga",
        "do"
      ],
      [
        "sel",
        "f"
      ],
      [
        "cois",
        "a"
      ],
      [
        ")",
        "."
      ],
      [
        "L",
        "o"
      ],
      [
        "v",
        "em"
      ],
      [
        "á",
        "s"
      ],
      [
        "al",
        "so"
      ],
      [
        "ci",
        "on"
      ],
      [
        "lo",
        "w"
      ],
      [
        "su",
        "re"
      ],
      [
        "pre",
        "cis"
      ],
      [
        "l",
        "it"
      ],
      [
        "in",
        "o"
      ],
      [
        "th",
        "ese"
      ],
      [
        "en",
        "as"
      ],
      [
        "an",
        "e"
      ],
      [
        "an",
        "g"
      ],
      [
        "ra",
        "z"
      ],
      [
        "ul",
        "t"
      ],
      [
        "Th",
        "ere"
      ],
      [
        "sel",
        "ho"
      ],
      [
        "Regul",
        "ation"
      ],
      [
        ".",
        "\""
      ],
      [
        "a",
        "k"
      ],
      [
        "m",
        "ã"
      ],
      [
        "s",
        "ta"
      ],
      [
        "th",
        "en"
      ],
      [
        "ti",
        "ca"
      ],
      [
        "ti",
        "va"
      ],
      [
        "em",
        "p"
      ],
      [
        "he",
        "l"
      ],
      [
        "bl",
        "ic"
      ],
      [
        "He",
        "y"
      ],
      [
        "C",
        "ou"
      ],
      [
        "H",
        "ow"
      ],
      [
        "v",
        "ia"
      ],
      [
        "ç",
        "as"
      ],
      [
        "ag",
        "ora"
      ],
      [
        "je",
        "c"
      ],
      [
        "Esta",
        "dos"
      ],
      [
        "E",
        "la"
      ],
      [
        "d",
        "in"
      ],
      [
        "or",
        "y"
      ],
      [
        "po",
        "der"
      ],
      [
        "1",
        "4"
      ],
      [
        "z",
        "a"
      ],
      [
        "de",
        "m"
      ],
      [
        "de",
        "ix"
      ],
      [
        "de",
        "cis"
      ],
      [
        "qu",
        "ê"
      ],
      [
        "do",
        "es"
      ],
      [
        "be",
        "cause"
      ],
      [
        "Com",
        "e"
      ],
      [
        "tu",
        "a"
      ],
      [
        "sen",
        "hor"
      ],
      [
        "Di",
        "rec"
      ],
      [
        "C",
        "O"
      ],
      [
        "E",
        "U"
      ],
      [
        "c",
        "os"
      ],
      [
        "l",
        "ong"
      ],
      [
        "à",
        "s"
      ],
      [
        "is",
        "ta"
      ],
      [
        "su",
        "p"
      ],
      [
        "Qu",
        "er"
      ],
      [
        "cas",
        "a"
      ],
      [
        "Sen",
        "hor"
      ],
      [
        "F",
        "or"
      ],
      [
        "H",
        "o"
      ],
      [
        "P",
        "o"
      ],
      [
        "a",
        "v"
      ],
      [
        "d",
        "est"
      ],
      [
        "h",
        "os"
      ],
      [
        "m",
        "im"
      ],
      [
        "m",
        "ul"
      ],
      [
        "é",
        "s"
      ],
      [
        "at",
        "a"
      ],
      [
        "di",
        "z"
      ],
      [
        "ver",
        "s"
      ],
      [
        "pen",
        "s"
      ],
      [
        "sti",
        "tu"
      ],
      [
        "D",
        "es"
      ],
      [
        "L",
        "i"
      ],
      [
        "T",
        "en"
      ],
      [
        "a",
        "ju"
      ],
      [
        "b",
        "as"
      ],
      [
        "c",
        "am"
      ],
      [
        "j",
        "un"
      ],
      [
        "m",
        "it"
      ],
      [
        "s",
        "itu"
      ],
      [
        "t",
        "ri"
      ],
      [
        "ar",
        "t"
      ],
      [
        "at",
        "o"
      ],
      [
        "ta",
        "in"
      ],
      [
        "ke",
        "t"
      ],
      [
        "fa",
        "z"
      ],
      [
        "tem",
        "po"
      ],
      [
        "Con",
        "selho"
      ],
      [
        "St",
        "ates"
      ],
      [
        "B",
        "o"
      ],
      [
        "a",
        "ge"
      ],
      [
        "c",
        "le"
      ],
      [
        "d",
        "en"
      ],
      [
        "ion",
        "s"
      ],
      [
        "est",
        "ou"
      ],
      [
        "per",
        "i"
      ],
      [
        "emb",
        "ros"
      ],
      [
        "rel",
        "ati"
      ],
      [
        "3",
        "0"
      ],
      [
        "c",
        "us"
      ],
      [
        "d",
        "ut"
      ],
      [
        "in",
        "clu"
      ],
      [
        "an",
        "ça"
      ],
      [
        "ta",
        "do"
      ],
      [
        "por",
        "ta"
      ],
      [
        "ass",
        "im"
      ],
      [
        "cl",
        "ar"
      ],
      [
        "m",
        "al"
      ],
      [
        "s",
        "in"
      ],
      [
        "ê",
        "s"
      ],
      [
        "en",
        "vol"
      ],
      [
        "an",
        "a"
      ],
      [
        "ca",
        "do"
      ],
      [
        "pr",
        "in"
      ],
      [
        "A",
        "g"
      ],
      [
        "g",
        "ur"
      ],
      [
        "h",
        "om"
      ],
      [
        "n",
        "ational"
      ],
      [
        "p",
        "i"
      ],
      [
        "v",
        "amos"
      ],
      [
        "ou",
        "tr"
      ],
      [
        "re",
        "ad"
      ],
      [
        "di",
        "o"
      ],
      [
        "ter",
        "min"
      ],
      [
        "pro",
        "pos"
      ],
      [
        "pro",
        "gram"
      ],
      [
        "si",
        "g"
      ],
      [
        "cons",
        "ider"
      ],
      [
        "some",
        "thing"
      ],
      [
        "Por",
        "que"
      ],
      [
        "lit",
        "tle"
      ],
      [
        "E",
        "n"
      ],
      [
        "r",
        "it"
      ],
      [
        "t",
        "on"
      ],
      [
        "is",
        "te"
      ],
      [
        "ti",
        "l"
      ],
      [
        "ac",
        "or"
      ],
      [
        "me",
        "an"
      ],
      [
        "por",
        "que"
      ],
      [
        "na",
        "da"
      ],
      [
        "eu",
        "ro"
      ],
      [
        "\"",
        "."
      ],
      [
        "b",
        "il"
      ],
      [
        "g",
        "em"
      ],
      [
        "p",
        "ass"
      ],
      [
        "com",
        "pe"
      ],
      [
        "un",
        "ity"
      ],
      [
        "ma",
        "de"
      ],
      [
        "nci",
        "l"
      ],
      [
        "Ok",
        "ay"
      ],
      [
        "Ent",
        "ão"
      ],
      [
        "1",
        "8"
      ],
      [
        "b",
        "a"
      ],
      [
        "b",
        "ro"
      ],
      [
        "i",
        "es"
      ],
      [
        "l",
        "as"
      ],
      [
        "p",
        "s"
      ],
      [
        "p",
        "ul"
      ],
      [
        "in",
        "u"
      ],
      [
        "th",
        "ou"
      ],
      [
        "th",
        "ose"
      ],
      [
        "qu",
        "em"
      ],
      [
        "se",
        "t"
      ],
      [
        "con",
        "tra"
      ],
      [
        "ca",
        "da"
      ],
      [
        "od",
        "y"
      ],
      [
        "L",
        "e"
      ],
      [
        "T",
        "r"
      ],
      [
        "a",
        "ut"
      ],
      [
        "b",
        "om"
      ],
      [
        "d",
        "ur"
      ],
      [
        "h",
        "ou"
      ],
      [
        "i",
        "as"
      ],
      [
        "n",
        "ós"
      ],
      [
        "r",
        "as"
      ],
      [
        "s",
        "ou"
      ],
      [
        "t",
        "ão"
      ],
      [
        "á",
        "vel"
      ],
      [
        "to",
        "o"
      ],
      [
        "he",
        "d"
      ],
      [
        "pa",
        "ís"
      ],
      [
        "pr",
        "ó"
      ],
      [
        "ati",
        "ve"
      ],
      [
        "ári",
        "os"
      ],
      [
        "N",
        "a"
      ],
      [
        "m",
        "é"
      ],
      [
        "n",
        "acion"
      ],
      [
        "ar",
        "am"
      ],
      [
        "ac",
        "onte"
      ],
      [
        "li",
        "fe"
      ],
      [
        "pro",
        "te"
      ],
      [
        "ce",
        "p"
      ],
      [
        "pri",
        "me"
      ],
      [
        "fal",
        "ar"
      ],
      [
        "Cou",
        "ncil"
      ],
      [
        "M",
        "ay"
      ],
      [
        "a",
        "ve"
      ],
      [
        "c",
        "all"
      ],
      [
        "n",
        "ed"
      ],
      [
        "u",
        "al"
      ],
      [
        "ç",
        "os"
      ],
      [
        "ti",
        "po"
      ],
      [
        "ic",
        "al"
      ],
      [
        "un",
        "ca"
      ],
      [
        "so",
        "ci"
      ],
      [
        "ver",
        "dade"
      ],
      [
        "res",
        "s"
      ],
      [
        "id",
        "os"
      ],
      [
        "ne",
        "ver"
      ],
      [
        "cont",
        "ro"
      ],
      [
        "E",
        "R"
      ],
      [
        "M",
        "a"
      ],
      [
        "O",
        "n"
      ],
      [
        "b",
        "or"
      ],
      [
        "p",
        "al"
      ],
      [
        "con",
        "segu"
      ],
      [
        "be",
        "le"
      ],
      [
        "be",
        "lie"
      ],
      [
        "00",
        "0"
      ],
      [
        "pu",
        "blic"
      ],
      [
        "F",
        "o"
      ],
      [
        "b",
        "us"
      ],
      [
        "f",
        "ar"
      ],
      [
        "r",
        "is"
      ],
      [
        "in",
        "ho"
      ],
      [
        "re",
        "ally"
      ],
      [
        "te",
        "u"
      ],
      [
        "fic",
        "a"
      ],
      [
        "fic",
        "ar"
      ],
      [
        "ap",
        "enas"
      ],
      [
        "Est",
        "ou"
      ],
      [
        "ves",
        "ti"
      ],
      [
        "did",
        "n"
      ],
      [
        "pesso",
        "as"
      ],
      [
        "year",
        "s"
      ],
      [
        "I",
        "N"
      ],
      [
        "b",
        "ody"
      ],
      [
        "c",
        "y"
      ],
      [
        "t",
        "wo"
      ],
      [
        "or",
        "gan"
      ],
      [
        "re",
        "la"
      ],
      [
        "qu",
        "es"
      ],
      [
        "da",
        "des"
      ],
      [
        "ac",
        "ti"
      ],
      [
        "la",
        "y"
      ],
      [
        "su",
        "ch"
      ],
      [
        "ser",
        "v"
      ],
      [
        "Wh",
        "y"
      ],
      [
        "ct",
        "s"
      ],
      [
        "E",
        "x"
      ],
      [
        "P",
        "e"
      ],
      [
        "on",
        "de"
      ],
      [
        "to",
        "p"
      ],
      [
        "se",
        "gun"
      ],
      [
        "we",
        "ll"
      ],
      [
        "esta",
        "va"
      ],
      [
        "econ",
        "om"
      ],
      [
        "fir",
        "st"
      ],
      [
        "D",
        "on"
      ],
      [
        "c",
        "um"
      ],
      [
        "i",
        "ma"
      ],
      [
        "re",
        "m"
      ],
      [
        "ti",
        "do"
      ],
      [
        "se",
        "us"
      ],
      [
        "com",
        "p"
      ],
      [
        "li",
        "dade"
      ],
      [
        "ul",
        "ar"
      ],
      [
        "lo",
        "g"
      ],
      [
        "ab",
        "or"
      ],
      [
        "we",
        "en"
      ],
      [
        "pl",
        "ic"
      ],
      [
        "ment",
        "s"
      ],
      [
        "ári",
        "a"
      ],
      [
        "rou",
        "gh"
      ],
      [
        "trabal",
        "ho"
      ],
      [
        "V",
        "o"
      ],
      [
        "t",
        "es"
      ],
      [
        "in",
        "form"
      ],
      [
        "re",
        "ce"
      ],
      [
        "ll",
        "ow"
      ],
      [
        "go",
        "ver"
      ],
      [
        "pro",
        "dut"
      ],
      [
        "ad",
        "or"
      ],
      [
        "B",
        "em"
      ],
      [
        "d",
        "ent"
      ],
      [
        "f",
        "t"
      ],
      [
        "f",
        "ul"
      ],
      [
        "p",
        "ou"
      ],
      [
        "p",
        "ut"
      ],
      [
        "s",
        "al"
      ],
      [
        "z",
        "e"
      ],
      [
        "í",
        "li"
      ],
      [
        "th",
        "rough"
      ],
      [
        "ti",
        "vo"
      ],
      [
        "ro",
        "w"
      ],
      [
        "ch",
        "am"
      ],
      [
        "Th",
        "ank"
      ],
      [
        "ap",
        "pro"
      ],
      [
        "pr",
        "om"
      ],
      [
        "pl",
        "ace"
      ],
      [
        "gr",
        "an"
      ],
      [
        "\"",
        ","
      ],
      [
        "L",
        "et"
      ],
      [
        "S",
        "u"
      ],
      [
        "b",
        "it"
      ],
      [
        "e",
        "ven"
      ],
      [
        "f",
        "ri"
      ],
      [
        "g",
        "ir"
      ],
      [
        "i",
        "e"
      ],
      [
        "l",
        "and"
      ],
      [
        "t",
        "é"
      ],
      [
        "ac",
        "tu"
      ],
      [
        "con",
        "cer"
      ],
      [
        "No",
        "w"
      ],
      [
        "emb",
        "ro"
      ],
      [
        "De",
        "us"
      ],
      [
        "ida",
        "des"
      ],
      [
        "Regul",
        "amento"
      ],
      [
        "fu",
        "ck"
      ],
      [
        "hel",
        "p"
      ],
      [
        "e",
        "ver"
      ],
      [
        "h",
        "and"
      ],
      [
        "l",
        "ti"
      ],
      [
        "com",
        "ple"
      ],
      [
        "per",
        "son"
      ],
      [
        "cont",
        "inu"
      ],
      [
        "bet",
        "ween"
      ],
      [
        "Uni",
        "ão"
      ],
      [
        "G",
        "od"
      ],
      [
        "l",
        "ast"
      ],
      [
        "r",
        "est"
      ],
      [
        "s",
        "ur"
      ],
      [
        "in",
        "do"
      ],
      [
        "se",
        "gur"
      ],
      [
        "gu",
        "e"
      ],
      [
        "pos",
        "si"
      ],
      [
        "pres",
        "ente"
      ],
      [
        "esta",
        "bele"
      ],
      [
        "way",
        "s"
      ],
      [
        "E",
        "S"
      ],
      [
        "e",
        "v"
      ],
      [
        "g",
        "as"
      ],
      [
        "u",
        "ti"
      ],
      [
        "u",
        "ra"
      ],
      [
        "it",
        "al"
      ],
      [
        "st",
        "ru"
      ],
      [
        "tu",
        "ra"
      ],
      [
        "ap",
        "res"
      ],
      [
        "ten",
        "ho"
      ],
      [
        "Un",
        "ion"
      ],
      [
        "C",
        "o"
      ],
      [
        "Y",
        "es"
      ],
      [
        "c",
        "our"
      ],
      [
        "n",
        "ome"
      ],
      [
        "es",
        "sa"
      ],
      [
        "an",
        "ti"
      ],
      [
        "ti",
        "tu"
      ],
      [
        "no",
        "ite"
      ],
      [
        "im",
        "ento"
      ],
      [
        "ap",
        "lic"
      ],
      [
        "mar",
        "ket"
      ],
      [
        "rel",
        "at"
      ],
      [
        "Par",
        "a"
      ],
      [
        "--",
        "--"
      ],
      [
        "af",
        "ter"
      ],
      [
        "emp",
        "lo"
      ],
      [
        "1",
        "7"
      ],
      [
        "A",
        "N"
      ],
      [
        "M",
        "o"
      ],
      [
        "c",
        "ha"
      ],
      [
        "d",
        "or"
      ],
      [
        "ê",
        "m"
      ],
      [
        "ú",
        "lti"
      ],
      [
        "in",
        "forma"
      ],
      [
        "to",
        "das"
      ],
      [
        "ri",
        "es"
      ],
      [
        "pe",
        "d"
      ],
      [
        "ir",
        "os"
      ],
      [
        "ce",
        "u"
      ],
      [
        "el",
        "es"
      ],
      [
        "belie",
        "ve"
      ],
      [
        "C",
        "ar"
      ],
      [
        "M",
        "y"
      ],
      [
        "O",
        "bri"
      ],
      [
        "P",
        "er"
      ],
      [
        "T",
        "H"
      ],
      [
        "U",
        "ma"
      ],
      [
        "W",
        "ho"
      ],
      [
        "a",
        "inda"
      ],
      [
        "d",
        "om"
      ],
      [
        "f",
        "ami"
      ],
      [
        "l",
        "ess"
      ],
      [
        "n",
        "y"
      ],
      [
        "en",
        "er"
      ],
      [
        "qu",
        "anto"
      ],
      [
        "be",
        "ing"
      ],
      [
        "be",
        "fore"
      ],
      [
        "lo",
        "p"
      ],
      [
        "dis",
        "so"
      ],
      [
        "mu",
        "ch"
      ],
      [
        "quer",
        "o"
      ],
      [
        "gi",
        "ve"
      ],
      [
        "U",
        "m"
      ],
      [
        "b",
        "on"
      ],
      [
        "b",
        "ab"
      ],
      [
        "i",
        "p"
      ],
      [
        "i",
        "ld"
      ],
      [
        "k",
        "s"
      ],
      [
        "u",
        "d"
      ],
      [
        "re",
        "port"
      ],
      [
        "di",
        "fer"
      ],
      [
        "par",
        "te"
      ],
      [
        "pe",
        "di"
      ],
      [
        "gu",
        "ém"
      ],
      [
        "man",
        "y"
      ],
      [
        "Comm",
        "unity"
      ],
      [
        "Ten",
        "ho"
      ],
      [
        "Vo",
        "cê"
      ],
      [
        "R",
        "O"
      ],
      [
        "a",
        "po"
      ],
      [
        "b",
        "an"
      ],
      [
        "g",
        "reat"
      ],
      [
        "h",
        "am"
      ],
      [
        "k",
        "es"
      ],
      [
        "k",
        "en"
      ],
      [
        "s",
        "os"
      ],
      [
        "ç",
        "ar"
      ],
      [
        "in",
        "vesti"
      ],
      [
        "th",
        "or"
      ],
      [
        "re",
        "gar"
      ],
      [
        "to",
        "ld"
      ],
      [
        "al",
        "ter"
      ],
      [
        "di",
        "rec"
      ],
      [
        "ma",
        "in"
      ],
      [
        "pro",
        "f"
      ],
      [
        "po",
        "lic"
      ],
      [
        "pa",
        "i"
      ],
      [
        "cas",
        "o"
      ],
      [
        "ni",
        "ght"
      ],
      [
        "mer",
        "cado"
      ],
      [
        "fri",
        "end"
      ],
      [
        "b",
        "ar"
      ],
      [
        "b",
        "ase"
      ],
      [
        "h",
        "ome"
      ],
      [
        "i",
        "le"
      ],
      [
        "or",
        "der"
      ],
      [
        "de",
        "pu"
      ],
      [
        "is",
        "hed"
      ],
      [
        "to",
        "tal"
      ],
      [
        "he",
        "ad"
      ],
      [
        "ll",
        "y"
      ],
      [
        "po",
        "lí"
      ],
      [
        "tr",
        "u"
      ],
      [
        "out",
        "ro"
      ],
      [
        "du",
        "z"
      ],
      [
        "fin",
        "an"
      ],
      [
        "Is",
        "so"
      ],
      [
        "read",
        "y"
      ],
      [
        "J",
        "o"
      ],
      [
        "M",
        "u"
      ],
      [
        "S",
        "er"
      ],
      [
        "n",
        "unca"
      ],
      [
        "s",
        "how"
      ],
      [
        "t",
        "in"
      ],
      [
        "t",
        "ro"
      ],
      [
        "u",
        "res"
      ],
      [
        "w",
        "an"
      ],
      [
        "é",
        "r"
      ],
      [
        "pa",
        "z"
      ],
      [
        "fe",
        "el"
      ],
      [
        "si",
        "de"
      ],
      [
        "tic",
        "as"
      ],
      [
        "Is",
        "to"
      ],
      [
        "dif",
        "fer"
      ],
      [
        "alg",
        "uma"
      ],
      [
        "Lo",
        "ok"
      ],
      [
        "mã",
        "e"
      ],
      [
        "uti",
        "liz"
      ],
      [
        "L",
        "u"
      ],
      [
        "M",
        "embros"
      ],
      [
        "O",
        "u"
      ],
      [
        "T",
        "al"
      ],
      [
        "a",
        "pro"
      ],
      [
        "g",
        "or"
      ],
      [
        "l",
        "an"
      ],
      [
        "m",
        "om"
      ],
      [
        "n",
        "ex"
      ],
      [
        "p",
        "ú"
      ],
      [
        "r",
        "al"
      ],
      [
        "t",
        "re"
      ],
      [
        "es",
        "per"
      ],
      [
        "or",
        "ig"
      ],
      [
        "de",
        "le"
      ],
      [
        "de",
        "ci"
      ],
      [
        "de",
        "pois"
      ],
      [
        "me",
        "as"
      ],
      [
        "ci",
        "mento"
      ],
      [
        "par",
        "ti"
      ],
      [
        "us",
        "ti"
      ],
      [
        "nci",
        "as"
      ],
      [
        "ado",
        "p"
      ],
      [
        "está",
        "s"
      ],
      [
        "sem",
        "pre"
      ],
      [
        "spe",
        "ci"
      ],
      [
        "aga",
        "in"
      ],
      [
        "A",
        "cho"
      ],
      [
        "a",
        "z"
      ],
      [
        "i",
        "ve"
      ],
      [
        "k",
        "ill"
      ],
      [
        "l",
        "on"
      ],
      [
        "n",
        "at"
      ],
      [
        "s",
        "p"
      ],
      [
        "en",
        "contr"
      ],
      [
        "at",
        "r"
      ],
      [
        "ac",
        "cor"
      ],
      [
        "pro",
        "vi"
      ],
      [
        "des",
        "envol"
      ],
      [
        "ga",
        "ção"
      ],
      [
        "pres",
        "ent"
      ],
      [
        "cas",
        "e"
      ],
      [
        "ni",
        "o"
      ],
      [
        "ob",
        "jec"
      ],
      [
        "men",
        "os"
      ],
      [
        "cul",
        "pa"
      ],
      [
        "gun",
        "s"
      ],
      [
        "mul",
        "her"
      ],
      [
        "I",
        "S"
      ],
      [
        "J",
        "á"
      ],
      [
        "T",
        "I"
      ],
      [
        "a",
        "que"
      ],
      [
        "c",
        "are"
      ],
      [
        "e",
        "ach"
      ],
      [
        "f",
        "re"
      ],
      [
        "f",
        "am"
      ],
      [
        "i",
        "th"
      ],
      [
        "l",
        "amento"
      ],
      [
        "â",
        "n"
      ],
      [
        "do",
        "ing"
      ],
      [
        "em",
        "pre"
      ],
      [
        "se",
        "con"
      ],
      [
        "ing",
        "s"
      ],
      [
        "par",
        "tic"
      ],
      [
        "un",
        "i"
      ],
      [
        "li",
        "ament"
      ],
      [
        "res",
        "ul"
      ],
      [
        "su",
        "as"
      ],
      [
        "wh",
        "y"
      ],
      [
        "pos",
        "s"
      ],
      [
        "one",
        "y"
      ],
      [
        "tem",
        "os"
      ],
      [
        "fo",
        "llow"
      ],
      [
        "Europe",
        "ia"
      ],
      [
        "hum",
        "an"
      ],
      [
        "acor",
        "do"
      ],
      [
        "euro",
        "pe"
      ],
      [
        "inform",
        "ation"
      ],
      [
        "gran",
        "de"
      ],
      [
        "J",
        "ul"
      ],
      [
        "O",
        "R"
      ],
      [
        "S",
        "ó"
      ],
      [
        "o",
        "wn"
      ],
      [
        "r",
        "ar"
      ],
      [
        "t",
        "ou"
      ],
      [
        "u",
        "h"
      ],
      [
        "v",
        "amente"
      ],
      [
        "es",
        "p"
      ],
      [
        "al",
        "e"
      ],
      [
        "vi",
        "ew"
      ],
      [
        "No",
        "t"
      ],
      [
        "Wh",
        "ere"
      ],
      [
        "min",
        "is"
      ],
      [
        "bi",
        "lidade"
      ],
      [
        "any",
        "thing"
      ],
      [
        "sti",
        "ll"
      ],
      [
        "cois",
        "as"
      ],
      [
        "ament",
        "os"
      ],
      [
        "hap",
        "pen"
      ],
      [
        "prin",
        "ci"
      ],
      [
        "thou",
        "ght"
      ],
      [
        "O",
        "f"
      ],
      [
        "S",
        "h"
      ],
      [
        "g",
        "g"
      ],
      [
        "m",
        "g"
      ],
      [
        "n",
        "al"
      ],
      [
        "p",
        "ur"
      ],
      [
        "r",
        "ong"
      ],
      [
        "s",
        "ame"
      ],
      [
        "v",
        "an"
      ],
      [
        "as",
        "te"
      ],
      [
        "de",
        "termin"
      ],
      [
        "qu",
        "is"
      ],
      [
        "te",
        "x"
      ],
      [
        "se",
        "ctor"
      ],
      [
        "ic",
        "es"
      ],
      [
        "so",
        "l"
      ],
      [
        "so",
        "lu"
      ],
      [
        "po",
        "pul"
      ],
      [
        "pa",
        "y"
      ]
    ]
  }
}